<unk>	0
<s>	0
</s>	0
<PAD>	0
<UNK>	0
▁t	-0
he	-1
▁a	-2
ou	-3
▁s	-4
in	-5
▁m	-6
▁w	-7
nd	-8
re	-9
▁the	-10
ha	-11
is	-12
▁o	-13
▁b	-14
er	-15
it	-16
or	-17
▁f	-18
ll	-19
▁d	-20
▁l	-21
en	-22
▁H	-23
on	-24
es	-25
▁I	-26
▁y	-27
▁c	-28
▁n	-29
▁you	-30
▁h	-31
▁th	-32
▁p	-33
▁to	-34
ar	-35
▁and	-36
hat	-37
▁T	-38
▁of	-39
at	-40
▁A	-41
ot	-42
ow	-43
st	-44
ing	-45
▁he	-46
an	-47
▁in	-48
ve	-49
et	-50
▁g	-51
om	-52
▁W	-53
▁my	-54
se	-55
ay	-56
▁be	-57
ut	-58
▁it	-59
ce	-60
le	-61
ld	-62
LE	-63
im	-64
AM	-65
LET	-66
▁HAM	-67
▁HAMLET	-68
▁O	-69
ith	-70
▁ha	-71
ed	-72
▁not	-73
▁is	-74
ch	-75
▁e	-76
gh	-77
▁me	-78
ir	-79
ord	-80
▁u	-81
as	-82
▁And	-83
▁his	-84
ill	-85
oo	-86
▁that	-87
her	-88
ad	-89
our	-90
ent	-91
▁with	-92
▁B	-93
▁The	-94
▁we	-95
▁this	-96
ak	-97
▁for	-98
▁your	-99
▁M	-100
▁S	-101
ght	-102
am	-103
▁F	-104
ion	-105
▁G	-106
▁L	-107
ri	-108
▁P	-109
▁k	-110
▁st	-111
▁him	-112
ra	-113
▁lord	-114
▁re	-115
al	-116
▁li	-117
▁mo	-118
ome	-119
▁de	-120
▁on	-121
▁do	-122
▁so	-123
id	-124
ter	-125
._	-126
EN	-127
ould	-128
▁K	-129
▁v	-130
▁as	-131
[_	-132
ly	-133
▁[_	-134
._]	-135
▁se	-136
RA	-137
▁C	-138
▁N	-139
ur	-140
pe	-141
ood	-142
us	-143
▁have	-144
ck	-145
▁will	-146
ct	-147
▁thou	-148
▁wh	-149
ge	-150
ain	-151
est	-152
▁sha	-153
▁but	-154
ro	-155
and	-156
▁R	-157
ess	-158
▁sh	-159
▁That	-160
LO	-161
li	-162
▁But	-163
▁no	-164
ue	-165
▁E	-166
▁our	-167
US	-168
un	-169
art	-170
ant	-171
▁To	-172
▁lo	-173
▁are	-174
IN	-175
▁D	-176
▁’	-177
ven	-178
▁kn	-179
out	-180
ight	-181
ER	-182
▁all	-183
▁Wh	-184
ell	-185
let	-186
▁Q	-187
sel	-188
▁what	-189
▁an	-190
▁su	-191
IO	-192
ke	-193
ORA	-194
TIO	-195
▁HORA	-196
▁HORATIO	-197
ers	-198
▁shall	-199
▁Y	-200
▁mu	-201
ING	-202
▁Th	-203
amlet	-204
▁KING	-205
if	-206
ous	-207
▁fa	-208
▁Hamlet	-209
ver	-210
▁What	-211
rom	-212
▁For	-213
ake	-214
il	-215
▁com	-216
ard	-217
▁by	-218
ive	-219
▁or	-220
EL	-221
fe	-222
ast	-223
▁pl	-224
ST	-225
han	-226
▁ne	-227
▁know	-228
▁more	-229
ol	-230
ert	-231
ure	-232
▁He	-233
▁her	-234
qu	-235
row	-236
▁un	-237
▁spe	-238
▁good	-239
em	-240
IUS	-241
OLO	-242
▁En	-243
▁con	-244
ep	-245
NIUS	-246
▁POLO	-247
▁POLONIUS	-248
here	-249
self	-250
▁from	-251
we	-252
ine	-253
▁thy	-254
▁them	-255
▁fat	-256
ind	-257
other	-258
ink	-259
▁go	-260
▁was	-261
ru	-262
▁at	-263
▁up	-264
ble	-265
AR	-266
ery	-267
▁they	-268
end	-269
one	-270
▁us	-271
▁like	-272
▁As	-273
▁man	-274
UE	-275
os	-276
ore	-277
▁bl	-278
▁mad	-279
▁there	-280
ose	-281
UEEN	-282
▁QUEEN	-283
Ex	-284
th	-285
ul	-286
▁My	-287
▁am	-288
▁can	-289
▁would	-290
▁King	-291
ave	-292
▁now	-293
▁come	-294
ate	-295
▁most	-296
▁father	-297
ong	-298
▁let	-299
▁love	-300
ath	-301
▁It	-302
od	-303
all	-304
ES	-305
ich	-306
▁r	-307
ence	-308
▁sir	-309
▁j	-310
hen	-311
▁Enter	-312
oth	-313
▁may	-314
▁well	-315
AER	-316
TES	-317
ook	-318
ves	-319
▁pr	-320
▁You	-321
▁hat	-322
▁LAER	-323
▁LAERTES	-324
▁ar	-325
▁if	-326
▁out	-327
▁play	-328
,—	-329
▁qu	-330
▁sp	-331
gain	-332
ment	-333
▁How	-334
▁hea	-335
▁speak	-336
IA	-337
ic	-338
pp	-339
▁say	-340
▁very	-341
PH	-342
oul	-343
ELIA	-344
▁OPH	-345
▁thee	-346
▁OPHELIA	-347
ry	-348
RAN	-349
ost	-350
▁pro	-351
▁see	-352
au	-353
▁ho	-354
▁did	-355
▁dis	-356
▁hath	-357
▁should	-358
ati	-359
ime	-360
▁If	-361
▁le	-362
ance	-363
ation	-364
▁must	-365
ort	-366
ound	-367
▁wor	-368
▁than	-369
▁their	-370
ear	-371
▁With	-372
▁some	-373
ag	-374
ame	-375
▁We	-376
▁Why	-377
▁too	-378
▁such	-379
▁again	-380
to	-381
um	-382
SEN	-383
ass	-384
▁So	-385
▁This	-386
▁think	-387
ies	-388
ild	-389
TZ	-390
▁RO	-391
CRAN	-392
▁here	-393
▁much	-394
CRANTZ	-395
▁ROSEN	-396
▁ROSENCRANTZ	-397
de	-398
ark	-399
reat	-400
▁Let	-401
▁heaven	-402
▁sa	-403
▁she	-404
LD	-405
ie	-406
ice	-407
▁po	-408
▁make	-409
WN	-410
ick	-411
res	-412
tis	-413
▁No	-414
LOWN	-415
aert	-416
atio	-417
ness	-418
ueen	-419
aertes	-420
oratio	-421
▁CLOWN	-422
IR	-423
▁Of	-424
▁tr	-425
IRST	-426
▁then	-427
▁FIRST	-428
▁Horatio	-429
wn	-430
▁In	-431
▁im	-432
hing	-433
ings	-434
▁gra	-435
▁time	-436
▁which	-437
ig	-438
nt	-439
ish	-440
own	-441
▁upon	-442
▁Where	-443
▁Laertes	-444
▁‘	-445
unt	-446
▁br	-447
▁ex	-448
▁fo	-449
ction	-450
▁hear	-451
▁night	-452
▁mother	-453
are	-454
ern	-455
ity	-456
way	-457
ther	-458
▁Pol	-459
▁one	-460
▁soul	-461
▁tell	-462
▁There	-463
ack	-464
enc	-465
ile	-466
▁ey	-467
fore	-468
ious	-469
▁had	-470
▁own	-471
▁comm	-472
▁death	-473
ull	-474
Exit	-475
rant	-476
▁give	-477
▁part	-478
▁where	-479
ire	-480
phe	-481
▁off	-482
▁these	-483
ff	-484
▁U	-485
ARC	-486
ELL	-487
urn	-488
▁Be	-489
▁fl	-490
▁nat	-491
ELLUS	-492
▁MARC	-493
▁heart	-494
▁MARCELLUS	-495
ap	-496
Exe	-497
ius	-498
▁Ay	-499
▁ab	-500
llow	-501
uild	-502
▁bet	-503
atter	-504
riend	-505
▁cann	-506
Exeunt	-507
el	-508
age	-509
▁al	-510
▁ch	-511
▁hon	-512
▁swe	-513
entle	-514
▁Come	-515
▁hand	-516
▁life	-517
▁Queen	-518
▁might	-519
UI	-520
ERN	-521
ust	-522
▁Or	-523
▁ro	-524
ENST	-525
UILD	-526
nder	-527
onius	-528
▁look	-529
▁show	-530
▁GUILD	-531
ENSTERN	-532
▁GUILDENSTERN	-533
ft	-534
ans	-535
ise	-536
ist	-537
itt	-538
▁Is	-539
▁cl	-540
enst	-541
rown	-542
▁God	-543
▁how	-544
ither	-545
▁thus	-546
▁Guild	-547
enstern	-548
▁Polonius	-549
▁Guildenstern	-550
ber	-551
▁sc	-552
ason	-553
▁Nor	-554
▁mar	-555
Tis	-556
ide	-557
lia	-558
orn	-559
ree	-560
▁pur	-561
▁yet	-562
▁Ophe	-563
▁dead	-564
▁king	-565
▁made	-566
▁word	-567
▁friend	-568
▁Ophelia	-569
ng	-570
▁Do	-571
▁ad	-572
▁co	-573
▁fe	-574
▁tw	-575
atch	-576
▁Ros	-577
▁cha	-578
▁dear	-579
▁down	-580
▁hast	-581
▁mine	-582
▁when	-583
▁matter	-584
RI	-585
ef	-586
ud	-587
▁V	-588
ars	-589
ase	-590
ite	-591
per	-592
▁sw	-593
akes	-594
ghts	-595
ough	-596
▁Now	-597
rantz	-598
▁When	-599
▁head	-600
▁into	-601
entlem	-602
▁great	-603
▁Rosenc	-604
▁cannot	-605
▁Rosencrantz	-606
.—	-607
ech	-608
eep	-609
▁en	-610
able	-611
ount	-612
▁bod	-613
▁bre	-614
▁day	-615
▁des	-616
▁rem	-617
▁who	-618
▁call	-619
▁hold	-620
▁pass	-621
▁pray	-622
▁world	-623
▁nature	-624
▁nothing	-625
RIC	-626
ady	-627
its	-628
▁OS	-629
arth	-630
land	-631
▁beg	-632
▁per	-633
▁put	-634
▁been	-635
▁OSRIC	-636
▁blood	-637
▁could	-638
cc	-639
cl	-640
pt	-641
ace	-642
irt	-643
ret	-644
▁ob	-645
esty	-646
mark	-647
▁imp	-648
▁take	-649
▁true	-650
▁leave	-651
▁follow	-652
aw	-653
co	-654
▁wr	-655
cell	-656
ison	-657
▁Den	-658
▁Nay	-659
▁Who	-660
▁set	-661
▁ever	-662
▁fear	-663
▁fell	-664
▁were	-665
▁Denmark	-666
ps	-667
ful	-668
raw	-669
▁ma	-670
leep	-671
▁act	-672
▁end	-673
▁ple	-674
▁str	-675
aught	-676
▁Good	-677
▁Then	-678
▁Your	-679
▁does	-680
▁doth	-681
▁fair	-682
▁comes	-683
▁sweet	-684
▁itself	-685
DO	-686
mp	-687
oy	-688
▁i	-689
der	-690
erv	-691
eve	-692
ger	-693
ilt	-694
▁At	-695
▁ri	-696
ause	-697
ince	-698
▁Eng	-699
▁nor	-700
▁pre	-701
▁son	-702
▁Fort	-703
▁away	-704
▁both	-705
▁done	-706
▁eyes	-707
▁find	-708
▁inde	-709
▁seen	-710
▁other	-711
ms	-712
ARN	-713
CEN	-714
ach	-715
ied	-716
ors	-717
une	-718
▁dr	-719
▁ra	-720
ARDO	-721
CENE	-722
omet	-723
ward	-724
ition	-725
▁BARN	-726
▁Give	-727
▁Will	-728
▁keep	-729
▁long	-730
▁SCENE	-731
▁Which	-732
▁earth	-733
▁whose	-734
▁indeed	-735
▁England	-736
▁gentlem	-737
▁madness	-738
▁BARNARDO	-739
CO	-740
br	-741
ci	-742
cy	-743
ank	-744
get	-745
ign	-746
ows	-747
▁By	-748
▁Go	-749
▁af	-750
▁gi	-751
ress	-752
rief	-753
▁His	-754
▁ass	-755
▁tri	-756
lieve	-757
▁They	-758
▁seem	-759
▁means	-760
▁himself	-761
ip	-762
igh	-763
int	-764
uty	-765
▁St	-766
▁bu	-767
▁sl	-768
irst	-769
▁art	-770
▁bra	-771
▁car	-772
▁dre	-773
▁ent	-774
▁old	-775
▁two	-776
▁cont	-777
▁cour	-778
▁fall	-779
▁litt	-780
▁poor	-781
▁spir	-782
selves	-783
▁thing	-784
▁those	-785
▁against	-786
▁friends	-787
ds	-788
ey	-789
lc	-790
alk	-791
eth	-792
les	-793
lse	-794
orm	-795
▁gr	-796
fect	-797
host	-798
oice	-799
well	-800
▁Mar	-801
▁dou	-802
▁ear	-803
▁Here	-804
▁comp	-805
▁dist	-806
▁many	-807
▁purp	-808
▁tong	-809
▁never	-810
▁sleep	-811
▁somet	-812
▁stand	-813
▁words	-814
▁honour	-815
▁little	-816
▁though	-817
▁brother	-818
AY	-819
iv	-820
ls	-821
LAY	-822
ale	-823
che	-824
ier	-825
old	-826
ory	-827
▁On	-828
▁Up	-829
▁gu	-830
▁pe	-831
▁wo	-832
ouch	-833
ring	-834
udge	-835
▁any	-836
▁har	-837
▁mur	-838
▁rep	-839
▁tre	-840
▁tru	-841
▁war	-842
▁wit	-843
LAYER	-844
iness	-845
lcome	-846
▁Look	-847
▁body	-848
▁else	-849
▁once	-850
▁rest	-851
▁wind	-852
estion	-853
▁cause	-854
▁drink	-855
▁grave	-856
▁noble	-857
▁sword	-858
▁watch	-859
aughter	-860
▁PLAYER	-861
▁before	-862
▁speech	-863
▁within	-864
▁believe	-865
ab	-866
ash	-867
ces	-868
ins	-869
iss	-870
▁An	-871
▁sk	-872
▁sm	-873
ense	-874
ween	-875
▁ret	-876
jesty	-877
▁Have	-878
▁Lord	-879
▁Than	-880
▁Thou	-881
▁best	-882
▁cons	-883
▁free	-884
▁live	-885
▁mind	-886
▁first	-887
▁state	-888
▁still	-889
▁thank	-890
▁young	-891
▁better	-892
▁reason	-893
▁command	-894
▁question	-895
▁thoughts	-896
bt	-897
sw	-898
ws	-899
▁_	-900
The	-901
ons	-902
ool	-903
umb	-904
▁Al	-905
aint	-906
imes	-907
rows	-908
rude	-909
swer	-910
▁Dan	-911
▁Did	-912
▁Not	-913
▁eye	-914
▁tra	-915
▁use	-916
astle	-917
▁Fare	-918
▁Upon	-919
▁conf	-920
▁even	-921
▁form	-922
▁last	-923
▁room	-924
▁said	-925
▁about	-926
▁reven	-927
▁	-928
e	-929
t	-930
o	-931
a	-932
s	-933
n	-934
h	-935
i	-936
r	-937
l	-938
d	-939
u	-940
m	-941
.	-942
,	-943
y	-944
w	-945
f	-946
c	-947
g	-948
p	-949
b	-950
T	-951
A	-952
I	-953
v	-954
E	-955
k	-956
’	-957
H	-958
O	-959
L	-960
N	-961
S	-962
M	-963
R	-964
W	-965
?	-966
;	-967
_	-968
G	-969
C	-970
P	-971
U	-972
B	-973
F	-974
D	-975
!	-976
K	-977
[	-978
]	-979
x	-980
—	-981
Y	-982
Q	-983
-	-984
q	-985
j	-986
:	-987
z	-988
Z	-989
‘	-990
V	-991
J	-992
&	-993
à	-994
