<unk>	0
<s>	0
</s>	0
<PAD>	0
<UNK>	0
▁t	-0
he	-1
▁a	-2
ou	-3
▁s	-4
in	-5
▁m	-6
▁w	-7
nd	-8
re	-9
▁the	-10
ha	-11
is	-12
▁o	-13
▁b	-14
er	-15
it	-16
or	-17
▁f	-18
ll	-19
▁d	-20
▁l	-21
en	-22
▁H	-23
on	-24
es	-25
▁I	-26
▁y	-27
▁c	-28
▁n	-29
▁you	-30
▁h	-31
▁th	-32
▁p	-33
▁to	-34
ar	-35
▁and	-36
hat	-37
▁T	-38
▁of	-39
at	-40
▁A	-41
ot	-42
ow	-43
st	-44
ing	-45
▁he	-46
an	-47
▁in	-48
ve	-49
et	-50
▁g	-51
om	-52
▁W	-53
▁my	-54
se	-55
ay	-56
▁be	-57
ut	-58
▁it	-59
ce	-60
le	-61
ld	-62
LE	-63
im	-64
AM	-65
LET	-66
▁HAM	-67
▁HAMLET	-68
▁O	-69
ith	-70
▁ha	-71
ed	-72
▁not	-73
▁is	-74
ch	-75
▁e	-76
gh	-77
▁me	-78
ir	-79
ord	-80
▁u	-81
as	-82
▁And	-83
▁his	-84
ill	-85
oo	-86
▁that	-87
her	-88
ad	-89
our	-90
ent	-91
▁with	-92
▁B	-93
▁The	-94
▁we	-95
▁this	-96
ak	-97
▁for	-98
▁your	-99
▁M	-100
▁S	-101
ght	-102
am	-103
▁F	-104
ion	-105
▁G	-106
▁L	-107
ri	-108
▁P	-109
▁k	-110
▁st	-111
▁him	-112
ra	-113
▁lord	-114
▁re	-115
al	-116
▁li	-117
▁mo	-118
ome	-119
▁de	-120
▁on	-121
▁do	-122
▁so	-123
id	-124
ter	-125
._	-126
EN	-127
ould	-128
▁K	-129
▁v	-130
▁as	-131
[_	-132
ly	-133
▁[_	-134
._]	-135
▁se	-136
RA	-137
▁C	-138
▁N	-139
ur	-140
pe	-141
ood	-142
us	-143
▁have	-144
ck	-145
▁will	-146
ct	-147
▁thou	-148
▁wh	-149
ge	-150
ain	-151
est	-152
▁sha	-153
▁but	-154
ro	-155
and	-156
▁R	-157
ess	-158
▁sh	-159
▁That	-160
LO	-161
li	-162
▁But	-163
▁no	-164
ue	-165
▁E	-166
▁our	-167
US	-168
un	-169
art	-170
ant	-171
▁To	-172
▁lo	-173
▁are	-174
IN	-175
▁D	-176
▁’	-177
ven	-178
▁kn	-179
out	-180
ight	-181
ER	-182
▁all	-183
▁Wh	-184
ell	-185
let	-186
▁Q	-187
sel	-188
▁what	-189
▁an	-190
▁su	-191
IO	-192
ke	-193
ORA	-194
TIO	-195
▁HORA	-196
▁HORATIO	-197
ers	-198
▁shall	-199
▁Y	-200
▁mu	-201
ING	-202
▁Th	-203
amlet	-204
▁KING	-205
if	-206
ous	-207
▁fa	-208
▁Hamlet	-209
ver	-210
▁What	-211
rom	-212
▁For	-213
ake	-214
il	-215
▁com	-216
ard	-217
▁by	-218
ive	-219
▁or	-220
EL	-221
fe	-222
ast	-223
▁pl	-224
ST	-225
han	-226
▁ne	-227
▁know	-228
▁more	-229
ol	-230
ert	-231
ure	-232
▁He	-233
▁her	-234
qu	-235
row	-236
▁un	-237
▁spe	-238
▁good	-239
em	-240
IUS	-241
OLO	-242
▁En	-243
▁con	-244
ep	-245
NIUS	-246
▁POLO	-247
▁POLONIUS	-248
here	-249
self	-250
▁from	-251
we	-252
ine	-253
▁thy	-254
▁them	-255
▁fat	-256
ind	-257
other	-258
ink	-259
▁go	-260
▁was	-261
ru	-262
▁at	-263
▁up	-264
ble	-265
AR	-266
ery	-267
▁they	-268
end	-269
one	-270
▁us	-271
▁like	-272
▁As	-273
▁man	-274
UE	-275
os	-276
ore	-277
▁bl	-278
▁mad	-279
▁there	-280
ose	-281
UEEN	-282
▁QUEEN	-283
Ex	-284
th	-285
ul	-286
▁My	-287
▁am	-288
▁can	-289
▁would	-290
▁King	-291
ave	-292
▁now	-293
▁come	-294
ate	-295
▁most	-296
▁father	-297
ong	-298
▁let	-299
▁love	-300
ath	-301
▁It	-302
od	-303
all	-304
ES	-305
ich	-306
▁r	-307
ence	-308
▁sir	-309
▁j	-310
hen	-311
▁Enter	-312
oth	-313
▁may	-314
▁well	-315
AER	-316
TES	-317
ook	-318
ves	-319
▁pr	-320
▁You	-321
▁hat	-322
▁LAER	-323
▁LAERTES	-324
▁ar	-325
▁if	-326
▁out	-327
▁play	-328
,—	-329
▁qu	-330
▁sp	-331
gain	-332
ment	-333
▁How	-334
▁hea	-335
▁speak	-336
IA	-337
ic	-338
pp	-339
▁say	-340
▁very	-341
PH	-342
oul	-343
ELIA	-344
▁OPH	-345
▁thee	-346
▁OPHELIA	-347
ry	-348
RAN	-349
ost	-350
▁pro	-351
▁see	-352
au	-353
▁ho	-354
▁did	-355
▁dis	-356
▁hath	-357
▁should	-358
ati	-359
ime	-360
▁If	-361
▁le	-362
ance	-363
ation	-364
▁must	-365
ort	-366
ound	-367
▁wor	-368
▁than	-369
▁their	-370
ear	-371
▁With	-372
▁some	-373
ag	-374
ame	-375
▁We	-376
▁Why	-377
▁too	-378
▁such	-379
▁again	-380
to	-381
um	-382
SEN	-383
ass	-384
▁So	-385
▁This	-386
▁think	-387
ies	-388
ild	-389
TZ	-390
▁RO	-391
CRAN	-392
▁here	-393
▁much	-394
CRANTZ	-395
▁ROSEN	-396
▁ROSENCRANTZ	-397
de	-398
ark	-399
reat	-400
▁Let	-401
▁heaven	-402
▁sa	-403
▁she	-404
LD	-405
ie	-406
ice	-407
▁po	-408
▁make	-409
WN	-410
ick	-411
res	-412
tis	-413
▁No	-414
LOWN	-415
aert	-416
atio	-417
ness	-418
ueen	-419
aertes	-420
oratio	-421
▁CLOWN	-422
IR	-423
▁Of	-424
▁tr	-425
IRST	-426
▁then	-427
▁FIRST	-428
▁Horatio	-429
wn	-430
▁In	-431
▁im	-432
hing	-433
ings	-434
▁gra	-435
▁time	-436
▁which	-437
ig	-438
nt	-439
ish	-440
own	-441
▁upon	-442
▁Where	-443
▁Laertes	-444
▁‘	-445
unt	-446
▁br	-447
▁ex	-448
▁fo	-449
ction	-450
▁hear	-451
▁night	-452
▁mother	-453
are	-454
ern	-455
ity	-456
way	-457
ther	-458
▁Pol	-459
▁one	-460
▁soul	-461
▁tell	-462
▁There	-463
ack	-464
enc	-465
ile	-466
▁ey	-467
fore	-468
ious	-469
▁had	-470
▁own	-471
▁comm	-472
▁death	-473
ull	-474
Exit	-475
rant	-476
▁give	-477
▁part	-478
▁where	-479
ire	-480
phe	-481
▁off	-482
▁these	-483
ff	-484
▁U	-485
ARC	-486
ELL	-487
urn	-488
▁Be	-489
▁fl	-490
▁nat	-491
ELLUS	-492
▁MARC	-493
▁heart	-494
▁MARCELLUS	-495
ap	-496
Exe	-497
ius	-498
▁Ay	-499
▁ab	-500
llow	-501
uild	-502
▁bet	-503
atter	-504
riend	-505
▁cann	-506
Exeunt	-507
el	-508
age	-509
▁al	-510
▁ch	-511
▁hon	-512
▁swe	-513
entle	-514
▁Come	-515
▁hand	-516
▁life	-517
▁Queen	-518
▁might	-519
UI	-520
ERN	-521
ust	-522
▁Or	-523
▁ro	-524
ENST	-525
UILD	-526
nder	-527
onius	-528
▁look	-529
▁show	-530
▁GUILD	-531
ENSTERN	-532
▁GUILDENSTERN	-533
ft	-534
ans	-535
ise	-536
ist	-537
itt	-538
▁Is	-539
▁cl	-540
enst	-541
rown	-542
▁God	-543
▁how	-544
ither	-545
▁thus	-546
▁Guild	-547
enstern	-548
▁Polonius	-549
▁Guildenstern	-550
ber	-551
▁sc	-552
ason	-553
▁Nor	-554
▁mar	-555
Tis	-556
ide	-557
lia	-558
orn	-559
ree	-560
▁pur	-561
▁yet	-562
▁Ophe	-563
▁dead	-564
▁king	-565
▁made	-566
▁word	-567
▁friend	-568
▁Ophelia	-569
ng	-570
▁Do	-571
▁ad	-572
▁co	-573
▁fe	-574
▁tw	-575
atch	-576
▁Ros	-577
▁cha	-578
▁dear	-579
▁down	-580
▁hast	-581
▁mine	-582
▁when	-583
▁matter	-584
RI	-585
ef	-586
ud	-587
▁V	-588
ars	-589
ase	-590
ite	-591
per	-592
▁sw	-593
akes	-594
ghts	-595
ough	-596
▁Now	-597
rantz	-598
▁When	-599
▁head	-600
▁into	-601
entlem	-602
▁great	-603
▁Rosenc	-604
▁cannot	-605
▁Rosencrantz	-606
.—	-607
ech	-608
eep	-609
▁en	-610
able	-611
ount	-612
▁bod	-613
▁bre	-614
▁day	-615
▁des	-616
▁rem	-617
▁who	-618
▁call	-619
▁hold	-620
▁pass	-621
▁pray	-622
▁world	-623
▁nature	-624
▁nothing	-625
RIC	-626
ady	-627
its	-628
▁OS	-629
arth	-630
land	-631
▁beg	-632
▁per	-633
▁put	-634
▁been	-635
▁OSRIC	-636
▁blood	-637
▁could	-638
cc	-639
cl	-640
pt	-641
ace	-642
irt	-643
ret	-644
▁ob	-645
esty	-646
mark	-647
▁imp	-648
▁take	-649
▁true	-650
▁leave	-651
▁follow	-652
aw	-653
co	-654
▁wr	-655
cell	-656
ison	-657
▁Den	-658
▁Nay	-659
▁Who	-660
▁set	-661
▁ever	-662
▁fear	-663
▁fell	-664
▁were	-665
▁Denmark	-666
ps	-667
ful	-668
raw	-669
▁ma	-670
leep	-671
▁act	-672
▁end	-673
▁ple	-674
▁str	-675
aught	-676
▁Good	-677
▁Then	-678
▁Your	-679
▁does	-680
▁doth	-681
▁fair	-682
▁comes	-683
▁sweet	-684
▁itself	-685
DO	-686
mp	-687
oy	-688
▁i	-689
der	-690
erv	-691
eve	-692
ger	-693
ilt	-694
▁At	-695
▁ri	-696
ause	-697
ince	-698
▁Eng	-699
▁nor	-700
▁pre	-701
▁son	-702
▁Fort	-703
▁away	-704
▁both	-705
▁done	-706
▁eyes	-707
▁find	-708
▁inde	-709
▁seen	-710
▁other	-711
ms	-712
ARN	-713
CEN	-714
ach	-715
ied	-716
ors	-717
une	-718
▁dr	-719
▁ra	-720
ARDO	-721
CENE	-722
omet	-723
ward	-724
ition	-725
▁BARN	-726
▁Give	-727
▁Will	-728
▁keep	-729
▁long	-730
▁SCENE	-731
▁Which	-732
▁earth	-733
▁whose	-734
▁indeed	-735
▁England	-736
▁gentlem	-737
▁madness	-738
▁BARNARDO	-739
CO	-740
br	-741
ci	-742
cy	-743
ank	-744
get	-745
ign	-746
ows	-747
▁By	-748
▁Go	-749
▁af	-750
▁gi	-751
ress	-752
rief	-753
▁His	-754
▁ass	-755
▁tri	-756
lieve	-757
▁They	-758
▁seem	-759
▁means	-760
▁himself	-761
ip	-762
igh	-763
int	-764
uty	-765
▁St	-766
▁bu	-767
▁sl	-768
irst	-769
▁art	-770
▁bra	-771
▁car	-772
▁dre	-773
▁ent	-774
▁old	-775
▁two	-776
▁cont	-777
▁cour	-778
▁fall	-779
▁litt	-780
▁poor	-781
▁spir	-782
selves	-783
▁thing	-784
▁those	-785
▁against	-786
▁friends	-787
ds	-788
ey	-789
lc	-790
alk	-791
eth	-792
les	-793
lse	-794
orm	-795
▁gr	-796
fect	-797
host	-798
oice	-799
well	-800
▁Mar	-801
▁dou	-802
▁ear	-803
▁Here	-804
▁comp	-805
▁dist	-806
▁many	-807
▁purp	-808
▁tong	-809
▁never	-810
▁sleep	-811
▁somet	-812
▁stand	-813
▁words	-814
▁honour	-815
▁little	-816
▁though	-817
▁brother	-818
AY	-819
iv	-820
ls	-821
LAY	-822
ale	-823
che	-824
ier	-825
old	-826
ory	-827
▁On	-828
▁Up	-829
▁gu	-830
▁pe	-831
▁wo	-832
ouch	-833
ring	-834
udge	-835
▁any	-836
▁har	-837
▁mur	-838
▁rep	-839
▁tre	-840
▁tru	-841
▁war	-842
▁wit	-843
LAYER	-844
iness	-845
lcome	-846
▁Look	-847
▁body	-848
▁else	-849
▁once	-850
▁rest	-851
▁wind	-852
estion	-853
▁cause	-854
▁drink	-855
▁grave	-856
▁noble	-857
▁sword	-858
▁watch	-859
aughter	-860
▁PLAYER	-861
▁before	-862
▁speech	-863
▁within	-864
▁believe	-865
ab	-866
ash	-867
ces	-868
ins	-869
iss	-870
▁An	-871
▁sk	-872
▁sm	-873
ense	-874
ween	-875
▁ret	-876
jesty	-877
▁Have	-878
▁Lord	-879
▁Than	-880
▁Thou	-881
▁best	-882
▁cons	-883
▁free	-884
▁live	-885
▁mind	-886
▁first	-887
▁state	-888
▁still	-889
▁thank	-890
▁young	-891
▁better	-892
▁reason	-893
▁command	-894
▁question	-895
▁thoughts	-896
bt	-897
sw	-898
ws	-899
▁_	-900
The	-901
ons	-902
ool	-903
umb	-904
▁Al	-905
aint	-906
imes	-907
rows	-908
rude	-909
swer	-910
▁Dan	-911
▁Did	-912
▁Not	-913
▁eye	-914
▁tra	-915
▁use	-916
astle	-917
▁Fare	-918
▁Upon	-919
▁conf	-920
▁even	-921
▁form	-922
▁last	-923
▁room	-924
▁said	-925
▁about	-926
▁reven	-927
▁youth	-928
▁Castle	-929
▁tongue	-930
▁players	-931
▁without	-932
▁daughter	-933
HO	-934
ND	-935
dd	-936
lp	-937
sh	-938
yr	-939
amn	-940
ets	-941
oun	-942
ove	-943
ren	-944
HOST	-945
bras	-946
form	-947
less	-948
ures	-949
▁acc	-950
▁air	-951
▁lie	-952
▁men	-953
▁way	-954
orrow	-955
▁bear	-956
▁damn	-957
▁fort	-958
▁gone	-959
▁lady	-960
▁sent	-961
▁turn	-962
▁vill	-963
inbras	-964
▁GHOST	-965
▁count	-966
▁faith	-967
▁grief	-968
▁hands	-969
▁heard	-970
▁judge	-971
▁remem	-972
▁answer	-973
▁spirit	-974
▁passion	-975
▁yourself	-976
▁Fortinbras	-977
.’	-978
EY	-979
NA	-980
To	-981
lt	-982
xt	-983
LDO	-984
eds	-985
led	-986
ont	-987
▁Re	-988
▁Un	-989
▁ph	-990
▁wa	-991
EYNA	-992
ants	-993
band	-994
ears	-995
like	-996
ling	-997
ouse	-998
ract	-999
ried	-1000
tend	-1001
ving	-1002
were	-1003
▁All	-1004
▁app	-1005
▁far	-1006
▁fit	-1007
▁has	-1008
▁hor	-1009
▁hus	-1010
▁inc	-1011
▁mon	-1012
▁oft	-1013
▁unc	-1014
▁vis	-1015
irtue	-1016
ments	-1017
ought	-1018
▁Gert	-1019
▁Well	-1020
▁duty	-1021
▁kill	-1022
▁kind	-1023
▁serv	-1024
▁work	-1025
gether	-1026
▁REYNA	-1027
▁Would	-1028
▁after	-1029
▁court	-1030
▁makes	-1031
▁thine	-1032
▁under	-1033
▁murder	-1034
▁please	-1035
▁between	-1036
▁Gertrude	-1037
▁REYNALDO	-1038
▁ourselves	-1039
ECO	-1040
ary	-1041
dom	-1042
ect	-1043
ult	-1044
unn	-1045
vil	-1046
▁Ma	-1047
▁Ne	-1048
▁ap	-1049
▁aw	-1050
▁gl	-1051
▁vi	-1052
ange	-1053
eral	-1054
oman	-1055
▁Her	-1056
▁Our	-1057
▁She	-1058
▁Sir	-1059
▁Yet	-1060
▁bed	-1061
▁bus	-1062
▁fur	-1063
▁law	-1064
▁pow	-1065
▁saw	-1066
▁wis	-1067
ECOND	-1068
Sings	-1069
ather	-1070
ceive	-1071
▁Most	-1072
▁chan	-1073
▁deli	-1074
▁fire	-1075
▁foul	-1076
▁goes	-1077
▁name	-1078
▁pres	-1079
▁same	-1080
▁grace	-1081
▁haste	-1082
▁light	-1083
▁sense	-1084
▁voice	-1085
▁while	-1086
▁Norway	-1087
▁SECOND	-1088
▁action	-1089
▁ground	-1090
▁myself	-1091
▁poison	-1092
▁return	-1093
▁further	-1094
▁husband	-1095
▁villain	-1096
▁welcome	-1097
▁something	-1098
OR	-1099
ac	-1100
op	-1101
vy	-1102
▁q	-1103
ade	-1104
air	-1105
ens	-1106
hus	-1107
ift	-1108
nde	-1109
red	-1110
uff	-1111
▁au	-1112
▁ru	-1113
ally	-1114
ated	-1115
cond	-1116
erve	-1117
most	-1118
peak	-1119
sand	-1120
ters	-1121
▁Swe	-1122
▁bea	-1123
▁bes	-1124
▁cur	-1125
▁joy	-1126
▁kne	-1127
▁mer	-1128
▁res	-1129
▁thr	-1130
▁ton	-1131
▁From	-1132
▁char	-1133
▁deed	-1134
▁disc	-1135
▁draw	-1136
▁face	-1137
▁fool	-1138
▁forg	-1139
▁gall	-1140
▁hell	-1141
▁help	-1142
▁hour	-1143
▁inst	-1144
▁maid	-1145
▁mean	-1146
▁walk	-1147
cellus	-1148
▁These	-1149
▁doubt	-1150
▁drown	-1151
▁queen	-1152
▁quick	-1153
▁right	-1154
▁uncle	-1155
▁excell	-1156
▁fellow	-1157
▁virtue	-1158
▁Majesty	-1159
▁purpose	-1160
▁revenge	-1161
▁strange	-1162
▁thought	-1163
▁tonight	-1164
▁Farewell	-1165
▁business	-1166
▁thousand	-1167
▁Marcellus	-1168
▁gentleman	-1169
As	-1170
ss	-1171
tw	-1172
arn	-1173
ats	-1174
cks	-1175
iet	-1176
ily	-1177
man	-1178
oud	-1179
ral	-1180
ume	-1181
yrr	-1182
▁II	-1183
▁Pl	-1184
▁Se	-1185
▁Su	-1186
hile	-1187
ical	-1188
iers	-1189
ions	-1190
mory	-1191
oint	-1192
rase	-1193
rent	-1194
▁Are	-1195
▁Mad	-1196
▁adv	-1197
▁amb	-1198
▁arm	-1199
▁cap	-1200
▁cor	-1201
▁ere	-1202
▁gen	-1203
▁gre	-1204
▁ind	-1205
▁mot	-1206
▁sec	-1207
Aside	-1208
anger	-1209
ndeed	-1210
stand	-1211
ustom	-1212
▁Alas	-1213
▁Make	-1214
▁Pyrr	-1215
▁Take	-1216
▁Till	-1217
▁back	-1218
▁came	-1219
▁fine	-1220
▁full	-1221
▁late	-1222
▁less	-1223
▁near	-1224
▁news	-1225
▁none	-1226
▁seal	-1227
▁stay	-1228
▁stru	-1229
▁tend	-1230
▁till	-1231
▁Whose	-1232
▁aught	-1233
▁dream	-1234
▁guilt	-1235
▁place	-1236
▁short	-1237
▁skull	-1238
ination	-1239
▁Indeed	-1240
▁awhile	-1241
▁breath	-1242
▁hither	-1243
▁honest	-1244
▁memory	-1245
▁phrase	-1246
▁second	-1247
▁things	-1248
▁Pyrrhus	-1249
▁another	-1250
▁gentlemen	-1251
az	-1252
bb	-1253
gs	-1254
me	-1255
▁J	-1256
aid	-1257
aim	-1258
asy	-1259
cum	-1260
els	-1261
ene	-1262
ian	-1263
ife	-1264
lex	-1265
nds	-1266
oof	-1267
oss	-1268
sed	-1269
ute	-1270
uth	-1271
▁Pr	-1272
▁fi	-1273
ager	-1274
ages	-1275
chan	-1276
erty	-1277
hind	-1278
ines	-1279
ject	-1280
outh	-1281
rift	-1282
ship	-1283
ural	-1284
very	-1285
vour	-1286
▁May	-1287
▁aff	-1288
▁age	-1289
▁cir	-1290
▁cra	-1291
▁fal	-1292
▁ill	-1293
▁lay	-1294
▁opp	-1295
▁pri	-1296
▁ten	-1297
▁uns	-1298
▁why	-1299
ardon	-1300
cious	-1301
ently	-1302
ister	-1303
▁arms	-1304
▁disp	-1305
▁dost	-1306
▁ears	-1307
▁gave	-1308
▁grow	-1309
▁land	-1310
▁mark	-1311
▁meet	-1312
▁over	-1313
▁pati	-1314
▁prof	-1315
▁rank	-1316
▁seek	-1317
▁sick	-1318
▁sold	-1319
▁sure	-1320
ertain	-1321
▁Ghost	-1322
▁Since	-1323
▁Speak	-1324
▁alone	-1325
▁being	-1326
▁crown	-1327
▁dread	-1328
▁every	-1329
▁given	-1330
▁marry	-1331
▁power	-1332
▁sight	-1333
▁since	-1334
▁Attend	-1335
▁circum	-1336
▁custom	-1337
▁danger	-1338
▁pardon	-1339
▁strong	-1340
▁through	-1341
▁remember	-1342
▁together	-1343
▁understand	-1344
CI	-1345
bl	-1346
cu	-1347
lf	-1348
lo	-1349
CIS	-1350
ads	-1351
ett	-1352
ial	-1353
ieu	-1354
lic	-1355
now	-1356
ock	-1357
rew	-1358
▁Ar	-1359
▁Ha	-1360
▁Li	-1361
▁cr	-1362
▁di	-1363
▁ef	-1364
▁fr	-1365
alth	-1366
ardo	-1367
ards	-1368
aven	-1369
cept	-1370
cess	-1371
ches	-1372
eech	-1373
fend	-1374
icul	-1375
iffe	-1376
ites	-1377
lsin	-1378
oles	-1379
oose	-1380
orne	-1381
ross	-1382
uous	-1383
usic	-1384
vent	-1385
▁Con	-1386
▁Had	-1387
▁Was	-1388
▁cal	-1389
▁che	-1390
▁inf	-1391
▁min	-1392
▁sea	-1393
▁ste	-1394
▁sun	-1395
▁woe	-1396
CISCO	-1397
aking	-1398
asure	-1399
claim	-1400
icked	-1401
ience	-1402
ified	-1403
ingly	-1404
twere	-1405
▁Barn	-1406
▁Even	-1407
▁FRAN	-1408
▁Hath	-1409
▁Pray	-1410
▁Thus	-1411
▁appe	-1412
▁cold	-1413
▁dull	-1414
▁each	-1415
▁fare	-1416
▁fash	-1417
▁foil	-1418
▁fore	-1419
▁hope	-1420
▁lack	-1421
▁lost	-1422
▁morn	-1423
▁obey	-1424
▁past	-1425
▁prov	-1426
▁says	-1427
▁shot	-1428
▁sing	-1429
▁viol	-1430
▁wife	-1431
cience	-1432
gainst	-1433
icular	-1434
stance	-1435
▁Elsin	-1436
▁Never	-1437
▁beast	-1438
▁black	-1439
▁bless	-1440
▁bring	-1441
▁devil	-1442
▁falls	-1443
▁false	-1444
▁fault	-1445
▁horri	-1446
▁known	-1447
▁month	-1448
▁mount	-1449
▁mouth	-1450
▁music	-1451
▁noise	-1452
▁peace	-1453
▁shame	-1454
▁shows	-1455
▁sound	-1456
▁takes	-1457
▁three	-1458
▁times	-1459
▁touch	-1460
▁woman	-1461
▁wrong	-1462
olesome	-1463
▁almost	-1464
▁charge	-1465
▁desire	-1466
▁desper	-1467
▁effect	-1468
▁import	-1469
▁Fortune	-1470
▁beseech	-1471
▁confess	-1472
▁fashion	-1473
▁fortune	-1474
▁neither	-1475
▁receive	-1476
▁service	-1477
▁Barnardo	-1478
▁Elsinore	-1479
▁lordship	-1480
▁FRANCISCO	-1481
▁Therefore	-1482
▁excellent	-1483
▁judgement	-1484
▁particular	-1485
AP	-1486
TA	-1487
bs	-1488
gg	-1489
hr	-1490
mb	-1491
ny	-1492
oc	-1493
amb	-1494
ann	-1495
day	-1496
edy	-1497
ept	-1498
gue	-1499
hal	-1500
har	-1501
hes	-1502
ken	-1503
kes	-1504
med	-1505
rer	-1506
rop	-1507
vel	-1508
▁Ex	-1509
▁Fr	-1510
▁ce	-1511
▁cu	-1512
▁es	-1513
▁op	-1514
▁pi	-1515
▁te	-1516
▁ye	-1517
APTA	-1518
With	-1519
ains	-1520
ancy	-1521
ater	-1522
full	-1523
iece	-1524
lius	-1525
mpet	-1526
oses	-1527
ries	-1528
▁Chr	-1529
▁Thy	-1530
▁arg	-1531
▁bir	-1532
▁dem	-1533
▁die	-1534
▁obs	-1535
▁sit	-1536
▁tem	-1537
▁ter	-1538
▁top	-1539
▁unf	-1540
▁unw	-1541
▁whe	-1542
fully	-1543
ortal	-1544
riage	-1545
thing	-1546
▁Hold	-1547
▁Like	-1548
▁More	-1549
▁Play	-1550
▁Very	-1551
▁dire	-1552
▁dust	-1553
▁hang	-1554
▁list	-1555
▁lose	-1556
▁pers	-1557
▁poss	-1558
▁prop	-1559
▁read	-1560
▁reco	-1561
▁soft	-1562
▁stir	-1563
▁suff	-1564
▁supp	-1565
▁wild	-1566
▁wilt	-1567
APTAIN	-1568
Within	-1569
chance	-1570
ctions	-1571
▁Marry	-1572
▁Swear	-1573
▁bound	-1574
▁brain	-1575
▁break	-1576
▁forth	-1577
▁ghost	-1578
▁heavy	-1579
▁looks	-1580
▁loves	-1581
▁madam	-1582
▁needs	-1583
▁point	-1584
▁quiet	-1585
▁visit	-1586
▁wager	-1587
▁water	-1588
▁whole	-1589
osition	-1590
▁Christ	-1591
▁Heaven	-1592
▁coming	-1593
▁common	-1594
▁enough	-1595
▁favour	-1596
▁health	-1597
▁prison	-1598
▁season	-1599
▁sister	-1600
▁struck	-1601
▁thanks	-1602
▁wisdom	-1603
▁CAPTAIN	-1604
▁entreat	-1605
▁general	-1606
▁heavens	-1607
▁letters	-1608
▁offence	-1609
▁therefore	-1610
▁wholesome	-1611
▁Attendants	-1612
▁conscience	-1613
AN	-1614
be	-1615
ev	-1616
ex	-1617
ix	-1618
iz	-1619
na	-1620
pr	-1621
zz	-1622
▁&	-1623
BRA	-1624
ORT	-1625
act	-1626
ail	-1627
ays	-1628
com	-1629
cri	-1630
gar	-1631
gin	-1632
ief	-1633
lig	-1634
lve	-1635
mir	-1636
nat	-1637
ole	-1638
olt	-1639
ots	-1640
que	-1641
ric	-1642
ted	-1643
ual	-1644
ues	-1645
ung	-1646
ush	-1647
zen	-1648
▁Ad	-1649
▁Fa	-1650
▁Fo	-1651
▁Os	-1652
▁Sh	-1653
▁ac	-1654
▁du	-1655
▁wi	-1656
BRAS	-1657
They	-1658
aker	-1659
arch	-1660
augh	-1661
ceed	-1662
ceit	-1663
ched	-1664
dden	-1665
haps	-1666
ible	-1667
ilst	-1668
inks	-1669
ises	-1670
ithe	-1671
oard	-1672
ourn	-1673
rous	-1674
sequ	-1675
vere	-1676
▁One	-1677
▁Say	-1678
▁aud	-1679
▁bad	-1680
▁bon	-1681
▁bro	-1682
▁cle	-1683
▁col	-1684
▁div	-1685
▁dra	-1686
▁eat	-1687
▁emp	-1688
▁enc	-1689
▁exp	-1690
▁ext	-1691
▁gar	-1692
▁hit	-1693
▁hot	-1694
▁ign	-1695
▁lib	-1696
▁occ	-1697
▁rec	-1698
▁sal	-1699
▁sat	-1700
▁ser	-1701
▁sho	-1702
▁sil	-1703
▁spo	-1704
▁unp	-1705
ORTIN	-1706
ances	-1707
emand	-1708
ement	-1709
enter	-1710
ourse	-1711
pping	-1712
ready	-1713
rench	-1714
right	-1715
▁Dane	-1716
▁Mark	-1717
▁Such	-1718
▁Volt	-1719
▁ange	-1720
▁cast	-1721
▁chur	-1722
▁cock	-1723
▁coun	-1724
▁dare	-1725
▁days	-1726
▁door	-1727
▁dumb	-1728
▁feed	-1729
▁fing	-1730
▁hard	-1731
▁hide	-1732
▁home	-1733
▁imag	-1734
▁just	-1735
▁knew	-1736
▁laid	-1737
▁lies	-1738
▁meth	-1739
▁move	-1740
▁need	-1741
▁note	-1742
▁only	-1743
▁pale	-1744
▁prep	-1745
▁star	-1746
▁stri	-1747
▁vile	-1748
▁want	-1749
▁weep	-1750
▁wret	-1751
▁writ	-1752
enance	-1753
icious	-1754
riages	-1755
▁Could	-1756
▁Faith	-1757
▁Osric	-1758
▁beard	-1759
▁enter	-1760
▁foils	-1761
▁house	-1762
▁ignor	-1763
▁laugh	-1764
▁march	-1765
▁piece	-1766
▁proof	-1767
▁round	-1768
▁seems	-1769
▁shape	-1770
▁slain	-1771
▁slave	-1772
▁table	-1773
▁tears	-1774
▁throw	-1775
▁truth	-1776
▁Danish	-1777
▁FORTIN	-1778
▁French	-1779
▁Though	-1780
▁appear	-1781
▁beauty	-1782
▁bloody	-1783
▁bodies	-1784
▁buried	-1785
▁choice	-1786
▁damned	-1787
▁double	-1788
▁either	-1789
▁forgot	-1790
▁gentle	-1791
▁guilty	-1792
▁others	-1793
▁sorrow	-1794
▁speaks	-1795
▁sudden	-1796
▁toward	-1797
▁wicked	-1798
▁withal	-1799
▁wonder	-1800
▁Another	-1801
▁Wherein	-1802
▁already	-1803
▁brought	-1804
▁commend	-1805
▁herself	-1806
▁warrant	-1807
▁ambition	-1808
▁farewell	-1809
▁marriage	-1810
▁Christian	-1811
▁Voltemand	-1812
▁desperate	-1813
▁discourse	-1814
▁FORTINBRAS	-1815
▁circumstance	-1816
,’	-1817
?—	-1818
CT	-1819
Re	-1820
ca	-1821
ek	-1822
gn	-1823
hy	-1824
mm	-1825
so	-1826
vi	-1827
alm	-1828
anc	-1829
cst	-1830
eng	-1831
erc	-1832
esh	-1833
ety	-1834
imp	-1835
ldo	-1836
men	-1837
oll	-1838
oms	-1839
ote	-1840
pel	-1841
ras	-1842
rem	-1843
▁Ab	-1844
▁Cl	-1845
▁Po	-1846
▁et	-1847
▁ta	-1848
arre	-1849
bles	-1850
cher	-1851
cial	-1852
eyna	-1853
hall	-1854
ifts	-1855
oral	-1856
owed	-1857
pect	-1858
rial	-1859
riam	-1860
rice	-1861
rive	-1862
utes	-1863
▁ACT	-1864
▁Get	-1865
▁Out	-1866
▁Rem	-1867
▁add	-1868
▁ask	-1869
▁bas	-1870
▁bid	-1871
▁bur	-1872
▁def	-1873
▁den	-1874
▁eas	-1875
▁est	-1876
▁fig	-1877
▁fly	-1878
▁fun	-1879
▁gri	-1880
▁hab	-1881
▁inv	-1882
▁kna	-1883
▁lun	-1884
▁mir	-1885
▁mod	-1886
▁new	-1887
▁non	-1888
▁pit	-1889
▁pot	-1890
▁pra	-1891
▁rap	-1892
▁rat	-1893
▁reg	-1894
▁sch	-1895
▁sli	-1896
▁sor	-1897
▁sub	-1898
▁try	-1899
▁twe	-1900
▁und	-1901
▁val	-1902
▁ven	-1903
▁win	-1904
Reads	-1905
aming	-1906
ander	-1907
assad	-1908
aster	-1909
ating	-1910
ature	-1911
erous	-1912
ident	-1913
ithee	-1914
itten	-1915
logue	-1916
owers	-1917
ption	-1918
umbly	-1919
ument	-1920
▁Alex	-1921
▁Both	-1922
▁Dost	-1923
▁Must	-1924
▁Stay	-1925
▁base	-1926
▁burn	-1927
▁conj	-1928
▁cunn	-1929
▁deep	-1930
▁enem	-1931
▁fant	-1932
▁fast	-1933
▁feel	-1934
▁four	-1935
▁half	-1936
▁happ	-1937
▁heat	-1938
▁kiss	-1939
▁lend	-1940
▁main	-1941
▁mass	-1942
▁mere	-1943
▁mist	-1944
▁mock	-1945
▁moon	-1946
▁nunn	-1947
▁prom	-1948
▁qual	-1949
▁rose	-1950
▁scar	-1951
▁send	-1952
▁shad	-1953
▁ship	-1954
▁sigh	-1955
▁stre	-1956
▁told	-1957
▁trag	-1958
▁vows	-1959
▁weak	-1960
▁wear	-1961
▁went	-1962
▁whom	-1963
▁wont	-1964
▁year	-1965
ission	-1966
ourish	-1967
retion	-1968
▁Bring	-1969
▁Corne	-1970
▁Madam	-1971
▁Priam	-1972
▁Reyna	-1973
▁Shall	-1974
▁arras	-1975
▁begin	-1976
▁blast	-1977
▁breat	-1978
▁cheer	-1979
▁chief	-1980
▁child	-1981
▁creat	-1982
▁fight	-1983
▁flesh	-1984
▁found	-1985
▁gifts	-1986
▁gives	-1987
▁gross	-1988
▁knave	-1989
▁meant	-1990
▁mercy	-1991
▁paint	-1992
▁pract	-1993
▁shalt	-1994
▁souls	-1995
▁stood	-1996
▁swear	-1997
▁teach	-1998
▁terms	-1999
▁truly	-2000
▁yours	-2001
▁Follow	-2002
▁France	-2003
▁Polack	-2004
▁behind	-2005
▁brains	-2006
▁burial	-2007
▁cannon	-2008
▁change	-2009
▁colour	-2010
▁course	-2011
▁demand	-2012
▁direct	-2013
▁figure	-2014
▁forget	-2015
▁humbly	-2016
▁impart	-2017
▁longer	-2018
▁mortal	-2019
▁motive	-2020
▁observ	-2021
▁offend	-2022
▁person	-2023
▁rather	-2024
▁report	-2025
▁secret	-2026
▁spring	-2027
▁twelve	-2028
▁visage	-2029
entleman	-2030
ifferent	-2031
▁Players	-2032
▁Welcome	-2033
▁Without	-2034
▁certain	-2035
▁country	-2036
▁fellows	-2037
▁hearing	-2038
▁honesty	-2039
▁instant	-2040
▁kingdom	-2041
▁liberty	-2042
▁majesty	-2043
▁morning	-2044
▁natural	-2045
▁nunnery	-2046
▁recover	-2047
▁remembr	-2048
▁silence	-2049
▁spirits	-2050
▁trumpet	-2051
▁warlike	-2052
▁wouldst	-2053
▁Reynaldo	-2054
▁accident	-2055
▁anything	-2056
▁audience	-2057
▁blessing	-2058
▁gracious	-2059
▁patience	-2060
▁soldiers	-2061
▁Alexander	-2062
▁Cornelius	-2063
▁carriages	-2064
▁presently	-2065
▁commission	-2066
▁themselves	-2067
▁countenance	-2068
▁disposition	-2069
▁imagination	-2070
!’	-2071
Th	-2072
ba	-2073
ea	-2074
ks	-2075
of	-2076
ORD	-2077
afe	-2078
agg	-2079
ago	-2080
als	-2081
aps	-2082
att	-2083
aud	-2084
aut	-2085
bby	-2086
bed	-2087
ced	-2088
dge	-2089
erm	-2090
gle	-2091
ird	-2092
ixt	-2093
nce	-2094
ner	-2095
oin	-2096
ond	-2097
ony	-2098
onz	-2099
rac	-2100
ses	-2101
ste	-2102
sue	-2103
the	-2104
uck	-2105
urt	-2106
▁Af	-2107
▁Bl	-2108
▁IV	-2109
▁Qu	-2110
▁av	-2111
▁da	-2112
▁ed	-2113
▁er	-2114
▁hu	-2115
▁id	-2116
Good	-2117
anct	-2118
arer	-2119
aste	-2120
berg	-2121
bled	-2122
cape	-2123
cuba	-2124
enty	-2125
fety	-2126
ging	-2127
ices	-2128
ides	-2129
ield	-2130
ires	-2131
irty	-2132
ives	-2133
jest	-2134
lish	-2135
mber	-2136
oney	-2137
orse	-2138
orth	-2139
osom	-2140
oted	-2141
ouds	-2142
ours	-2143
phew	-2144
race	-2145
raws	-2146
reak	-2147
roat	-2148
ruit	-2149
tent	-2150
ules	-2151
wise	-2152
▁Can	-2153
▁III	-2154
▁Tru	-2155
▁Whe	-2156
▁Yes	-2157
▁abs	-2158
▁ant	-2159
▁bar	-2160
▁baw	-2161
▁boy	-2162
▁cry	-2163
▁cup	-2164
▁dev	-2165
▁dig	-2166
▁duc	-2167
▁emb	-2168
▁get	-2169
▁god	-2170
▁hum	-2171
▁lab	-2172
▁lov	-2173
▁ord	-2174
▁par	-2175
▁pay	-2176
▁roy	-2177
▁shr	-2178
▁sin	-2179
▁unk	-2180
▁wax	-2181
▁wed	-2182
Twere	-2183
acher	-2184
earth	-2185
ember	-2186
enger	-2187
ength	-2188
ester	-2189
gnant	-2190
inent	-2191
inite	-2192
isure	-2193
maker	-2194
mpets	-2195
onoun	-2196
ounds	-2197
ousin	-2198
ulate	-2199
under	-2200
viour	-2201
▁Away	-2202
▁Doth	-2203
▁Gonz	-2204
▁Into	-2205
▁LORD	-2206
▁Meth	-2207
▁Mine	-2208
▁Noth	-2209
▁Tell	-2210
▁Unto	-2211
▁affe	-2212
▁amaz	-2213
▁beck	-2214
▁bend	-2215
▁bore	-2216
▁brow	-2217
▁cens	-2218
▁coll	-2219
▁comb	-2220
▁decl	-2221
▁defe	-2222
▁died	-2223
▁dism	-2224
▁ease	-2225
▁ecst	-2226
▁evil	-2227
▁fain	-2228
▁fish	-2229
▁glad	-2230
▁gold	-2231
▁hall	-2232
▁incl	-2233
▁kept	-2234
▁lead	-2235
▁lock	-2236
▁loud	-2237
▁mess	-2238
▁next	-2239
▁pate	-2240
▁plat	-2241
▁pure	-2242
▁puts	-2243
▁rash	-2244
▁smil	-2245
▁snow	-2246
▁sole	-2247
▁sort	-2248
▁stra	-2249
▁tale	-2250
▁talk	-2251
▁took	-2252
▁trou	-2253
▁unse	-2254
▁unto	-2255
▁wide	-2256
▁wise	-2257
▁wish	-2258
▁wits	-2259
▁worm	-2260
antity	-2261
asters	-2262
eneath	-2263
ession	-2264
idence	-2265
ounter	-2266
racted	-2267
▁Makes	-2268
▁Still	-2269
▁above	-2270
▁adieu	-2271
▁admir	-2272
▁affli	-2273
▁allow	-2274
▁angel	-2275
▁assur	-2276
▁begun	-2277
▁birth	-2278
▁blank	-2279
▁bones	-2280
▁bosom	-2281
▁breed	-2282
▁brief	-2283
▁close	-2284
▁corru	-2285
▁craft	-2286
▁drift	-2287
▁etern	-2288
▁frame	-2289
▁green	-2290
▁greet	-2291
▁grown	-2292
▁grows	-2293
▁guard	-2294
▁habit	-2295
▁hence	-2296
▁holds	-2297
▁horse	-2298
▁image	-2299
▁joint	-2300
▁keeps	-2301
▁lands	-2302
▁liege	-2303
▁occas	-2304
▁offer	-2305
▁oppos	-2306
▁order	-2307
▁pause	-2308
▁pleas	-2309
▁ready	-2310
▁sends	-2311
▁sorry	-2312
▁spade	-2313
▁speed	-2314
▁stage	-2315
▁stars	-2316
▁start	-2317
▁trans	-2318
▁trick	-2319
▁twice	-2320
▁unnat	-2321
▁vouch	-2322
▁weeds	-2323
▁weigh	-2324
▁witch	-2325
▁worth	-2326
estuous	-2327
▁Before	-2328
▁Hecuba	-2329
▁Mother	-2330
▁Should	-2331
▁Within	-2332
▁Witten	-2333
▁affair	-2334
▁bestow	-2335
▁choose	-2336
▁church	-2337
▁clouds	-2338
▁cursed	-2339
▁distem	-2340
▁except	-2341
▁freely	-2342
▁herein	-2343
▁horrid	-2344
▁instru	-2345
▁length	-2346
▁loving	-2347
▁months	-2348
▁motion	-2349
▁nation	-2350
▁native	-2351
▁necess	-2352
▁nephew	-2353
▁record	-2354
▁safety	-2355
▁scarce	-2356
▁seeing	-2357
▁shadow	-2358
▁sovere	-2359
▁stands	-2360
▁suffer	-2361
▁thrice	-2362
▁throat	-2363
▁wanton	-2364
▁whilst	-2365
assadors	-2366
sequence	-2367
▁Against	-2368
▁Gonzago	-2369
▁Nothing	-2370
▁Whereon	-2371
▁Whether	-2372
▁breathe	-2373
▁censure	-2374
▁chamber	-2375
▁conceit	-2376
▁content	-2377
▁cunning	-2378
▁fingers	-2379
▁flowers	-2380
▁follows	-2381
▁gallows	-2382
▁imports	-2383
▁leisure	-2384
▁modesty	-2385
▁perform	-2386
▁perhaps	-2387
▁present	-2388
▁proceed	-2389
▁process	-2390
▁pronoun	-2391
▁quality	-2392
▁shortly	-2393
▁thyself	-2394
▁treason	-2395
▁violent	-2396
▁Remember	-2397
▁argument	-2398
▁courtier	-2399
▁flourish	-2400
▁horrible	-2401
▁infinite	-2402
▁platform	-2403
▁pleasure	-2404
▁possible	-2405
▁practice	-2406
▁proclaim	-2407
▁prologue	-2408
▁property	-2409
▁quantity	-2410
▁straight	-2411
▁stronger	-2412
▁thinking	-2413
▁treasure	-2414
▁violence	-2415
ertainment	-2416
▁dangerous	-2417
▁encounter	-2418
▁perchance	-2419
▁unnatural	-2420
▁Wittenberg	-2421
▁discretion	-2422
▁commandment	-2423
▁consequence	-2424
▁indifferent	-2425
▁remembrance	-2426
▁entertainment	-2427
!—	-2428
Be	-2429
Tw	-2430
fo	-2431
ho	-2432
ht	-2433
ib	-2434
mn	-2435
sy	-2436
wo	-2437
xe	-2438
ys	-2439
’,	-2440
’—	-2441
ENT	-2442
LEM	-2443
acy	-2444
add	-2445
aff	-2446
ait	-2447
amp	-2448
cts	-2449
dds	-2450
eem	-2451
een	-2452
gan	-2453
ges	-2454
hah	-2455
hip	-2456
idd	-2457
isf	-2458
kin	-2459
low	-2460
loy	-2461
not	-2462
off	-2463
oid	-2464
omp	-2465
ope	-2466
ops	-2467
oup	-2468
pes	-2469
soe	-2470
son	-2471
ten	-2472
ump	-2473
unk	-2474
urp	-2475
urs	-2476
ury	-2477
use	-2478
uts	-2479
vey	-2480
▁Ah	-2481
▁Am	-2482
▁De	-2483
▁Ho	-2484
▁Hy	-2485
▁Le	-2486
▁Me	-2487
▁Oh	-2488
▁Pe	-2489
▁ay	-2490
▁bo	-2491
▁em	-2492
▁pu	-2493
▁ut	-2494
Dies	-2495
ases	-2496
ates	-2497
aves	-2498
bell	-2499
bute	-2500
cate	-2501
ceiv	-2502
cing	-2503
cted	-2504
draw	-2505
ency	-2506
eous	-2507
epht	-2508
head	-2509
iant	-2510
iate	-2511
ider	-2512
igns	-2513
ills	-2514
ique	-2515
isco	-2516
leed	-2517
lets	-2518
mble	-2519
ners	-2520
ning	-2521
omin	-2522
onge	-2523
ongs	-2524
ooth	-2525
oset	-2526
oubt	-2527
outs	-2528
part	-2529
pend	-2530
pent	-2531
ping	-2532
qual	-2533
rald	-2534
read	-2535
recy	-2536
rett	-2537
rove	-2538
rust	-2539
safe	-2540
that	-2541
twas	-2542
unes	-2543
vell	-2544
vers	-2545
ying	-2546
▁Arm	-2547
▁Cap	-2548
▁Fie	-2549
▁Imp	-2550
▁Mur	-2551
▁Per	-2552
▁Pro	-2553
▁Rep	-2554
▁See	-2555
▁Too	-2556
▁Two	-2557
▁Yea	-2558
▁apt	-2559
▁bab	-2560
▁bit	-2561
▁bow	-2562
▁bul	-2563
▁cow	-2564
▁del	-2565
▁det	-2566
▁dew	-2567
▁dry	-2568
▁ele	-2569
▁fee	-2570
▁fet	-2571
▁few	-2572
▁fie	-2573
▁gib	-2574
▁gro	-2575
▁hap	-2576
▁imm	-2577
▁ins	-2578
▁jaw	-2579
▁jig	-2580
▁lad	-2581
▁lap	-2582
▁lev	-2583
▁lim	-2584
▁mel	-2585
▁met	-2586
▁mil	-2587
▁mis	-2588
▁rot	-2589
▁rul	-2590
▁run	-2591
▁six	-2592
▁sur	-2593
▁ted	-2594
▁ung	-2595
▁unm	-2596
▁vio	-2597
▁whi	-2598
LEMAN	-2599
ament	-2600
andal	-2601
ankly	-2602
arden	-2603
arrel	-2604
asant	-2605
asted	-2606
beral	-2607
cepts	-2608
chers	-2609
comes	-2610
cript	-2611
cture	-2612
cules	-2613
derer	-2614
eness	-2615
erved	-2616
estil	-2617
ettle	-2618
ility	-2619
iving	-2620
liver	-2621
nance	-2622
night	-2623
onger	-2624
onour	-2625
orses	-2626
rence	-2627
rents	-2628
usion	-2629
uthor	-2630
venom	-2631
wards	-2632
▁Conf	-2633
▁Does	-2634
▁Each	-2635
▁GENT	-2636
▁None	-2637
▁Sail	-2638
▁Seem	-2639
▁Soft	-2640
▁Were	-2641
▁acqu	-2642
▁anon	-2643
▁bare	-2644
▁batt	-2645
▁bawd	-2646
▁beha	-2647
▁bell	-2648
▁bent	-2649
▁blaz	-2650
▁blow	-2651
▁bold	-2652
▁book	-2653
▁born	-2654
▁carp	-2655
▁clay	-2656
▁clot	-2657
▁dies	-2658
▁dish	-2659
▁edge	-2660
▁espe	-2661
▁five	-2662
▁flat	-2663
▁foot	-2664
▁forb	-2665
▁fret	-2666
▁gain	-2667
▁gods	-2668
▁heed	-2669
▁high	-2670
▁hill	-2671
▁hist	-2672
▁hits	-2673
▁hurt	-2674
▁idle	-2675
▁jest	-2676
▁left	-2677
▁lest	-2678
▁lets	-2679
▁liqu	-2680
▁mudd	-2681
▁neck	-2682
▁nine	-2683
▁oath	-2684
▁odds	-2685
▁open	-2686
▁opin	-2687
▁palm	-2688
▁pipe	-2689
▁pite	-2690
▁pith	-2691
▁pity	-2692
▁post	-2693
▁prim	-2694
▁rage	-2695
▁reck	-2696
▁reli	-2697
▁requ	-2698
▁safe	-2699
▁sail	-2700
▁salt	-2701
▁save	-2702
▁sign	-2703
▁sits	-2704
▁slow	-2705
▁soon	-2706
▁sore	-2707
▁step	-2708
▁stop	-2709
▁succ	-2710
▁suit	-2711
▁summ	-2712
▁tame	-2713
▁tear	-2714
▁uses	-2715
▁vice	-2716
▁ways	-2717
▁weap	-2718
▁whis	-2719
▁wond	-2720
▁wood	-2721
▁woul	-2722
Throws	-2723
antage	-2724
estial	-2725
ically	-2726
itable	-2727
itious	-2728
lexion	-2729
omsday	-2730
orical	-2731
orting	-2732
ounded	-2733
remony	-2734
seless	-2735
soever	-2736
vation	-2737
▁About	-2738
▁Adieu	-2739
▁After	-2740
▁Alack	-2741
▁Being	-2742
▁Break	-2743
▁First	-2744
▁Jepht	-2745
▁Leave	-2746
▁Peace	-2747
▁Saint	-2748
▁Somet	-2749
▁Stand	-2750
▁Sweet	-2751
▁Their	-2752
▁Truly	-2753
▁actor	-2754
▁along	-2755
▁artic	-2756
▁assay	-2757
▁avoid	-2758
▁beaut	-2759
▁below	-2760
▁blame	-2761
▁bleed	-2762
▁borne	-2763
▁brave	-2764
▁build	-2765
▁burst	-2766
▁calls	-2767
▁carry	-2768
▁corse	-2769
▁cried	-2770
▁cries	-2771
▁didst	-2772
▁diffe	-2773
▁discl	-2774
▁doors	-2775
▁dozen	-2776
▁enact	-2777
▁enemy	-2778
▁exerc	-2779
▁fancy	-2780
▁feast	-2781
▁fiery	-2782
▁finds	-2783
▁force	-2784
▁forms	-2785
▁fruit	-2786
▁glass	-2787
▁harsh	-2788
▁hears	-2789
▁heels	-2790
▁immed	-2791
▁incor	-2792
▁inter	-2793
▁knock	-2794
▁knows	-2795
▁liest	-2796
▁likes	-2797
▁lines	-2798
▁lives	-2799
▁loved	-2800
▁monst	-2801
▁negle	-2802
▁nonny	-2803
▁organ	-2804
▁parts	-2805
▁pious	-2806
▁proud	-2807
▁prove	-2808
▁purse	-2809
▁quite	-2810
▁resol	-2811
▁rises	-2812
▁rites	-2813
▁rouse	-2814
▁royal	-2815
▁sanct	-2816
▁scene	-2817
▁schol	-2818
▁scope	-2819
▁shipw	-2820
▁shuff	-2821
▁sides	-2822
▁skill	-2823
▁steal	-2824
▁steel	-2825
▁stick	-2826
▁stole	-2827
▁story	-2828
▁strew	-2829
▁stuff	-2830
▁suits	-2831
▁sweat	-2832
▁sweep	-2833
▁sworn	-2834
▁theme	-2835
▁thick	-2836
▁third	-2837
▁trial	-2838
▁trust	-2839
▁utter	-2840
▁venom	-2841
▁waves	-2842
▁wheel	-2843
▁white	-2844
▁whore	-2845
▁winds	-2846
▁years	-2847
▁yield	-2848
Beneath	-2849
Laertes	-2850
raction	-2851
▁Friend	-2852
▁Murder	-2853
▁Nature	-2854
▁Poland	-2855
▁Thanks	-2856
▁advice	-2857
▁armour	-2858
▁attend	-2859
▁author	-2860
▁beggar	-2861
▁bitter	-2862
▁borrow	-2863
▁chaste	-2864
▁closet	-2865
▁compan	-2866
▁conver	-2867
▁convey	-2868
▁cousin	-2869
▁crimes	-2870
▁defect	-2871
▁defend	-2872
▁dreams	-2873
▁ducats	-2874
▁employ	-2875
▁estate	-2876
▁faults	-2877
▁forest	-2878
▁gaming	-2879
▁gather	-2880
▁golden	-2881
▁goodly	-2882
▁hearer	-2883
▁herald	-2884
▁intent	-2885
▁inward	-2886
▁justly	-2887
▁kisses	-2888
▁labour	-2889
▁ladies	-2890
▁leaves	-2891
▁lights	-2892
▁livery	-2893
▁majest	-2894
▁nights	-2895
▁pestil	-2896
▁powers	-2897
▁preced	-2898
▁prepar	-2899
▁prince	-2900
▁profit	-2901
▁prophe	-2902
▁remain	-2903
▁remove	-2904
▁repent	-2905
▁reveng	-2906
▁sleeps	-2907
▁slight	-2908
▁smooth	-2909
▁solemn	-2910
▁sponge	-2911
▁temper	-2912
▁tender	-2913
▁thirty	-2914
▁threat	-2915
▁thrift	-2916
▁tricks	-2917
▁twenty	-2918
▁undert	-2919
▁unfold	-2920
▁unseen	-2921
▁wisest	-2922
▁wretch	-2923
▁Believe	-2924
▁Sailors	-2925
▁beating	-2926
▁beckons	-2927
▁	-2928
e	-2929
t	-2930
o	-2931
a	-2932
s	-2933
n	-2934
h	-2935
i	-2936
r	-2937
l	-2938
d	-2939
u	-2940
m	-2941
.	-2942
,	-2943
y	-2944
w	-2945
f	-2946
c	-2947
g	-2948
p	-2949
b	-2950
T	-2951
A	-2952
I	-2953
v	-2954
E	-2955
k	-2956
’	-2957
H	-2958
O	-2959
L	-2960
N	-2961
S	-2962
M	-2963
R	-2964
W	-2965
?	-2966
;	-2967
_	-2968
G	-2969
C	-2970
P	-2971
U	-2972
B	-2973
F	-2974
D	-2975
!	-2976
K	-2977
[	-2978
]	-2979
x	-2980
—	-2981
Y	-2982
Q	-2983
-	-2984
q	-2985
j	-2986
:	-2987
z	-2988
Z	-2989
‘	-2990
V	-2991
J	-2992
&	-2993
à	-2994
